5F
1B
00
44
65
32
7F
7F
46
07
F9
E4
F0
E2
E6
D8
CD
B8
C4
CE
C7
E4
F4
DD
E5
EF
ED
F9
0F
0F
FF
F2
F5
F0
CE
EC
DE
ED
DC
F2
F4
FF
0F
1A
0B
FF
0D
B7
F9
E2
E6
EA
E1
F8
07
1D
24
1D
03
11
CD
F6
E9
ED
F1
F9
0E
08
F4
09
0E
13
0B
F6
EA
E9
FF
F7
F8
F8
DD
A8
DF
F0
13
1D
18
D1
F0
12
16
10
0B
B3
90
D0
01
10
26
1F
B8
EE
0C
1E
20
EF
9A
C1
04
0C
0F
11
18
C4
E9
02
08
1B
06
BC
D0
0D
0E
07
03
EE
CE
EA
F7
01
23
19
01
04
07
F3
FD
01
EA
E1
E2
0E
05
10
29
19
05
F2
EF
FD
FB
E7
E0
E4
F4
FB
0A
1F
12
0E
FC
E2
E3
E9
E9
ED
E5
C4
C7
B9
D9
D4
D1
C0
C4
C4
E6
EA
FC
F4
E1
E5
CC
E2
F4
08
D6
BA
BA
C8
E4
0C
FF
03
EF
E6
03
26
FD
01
0F
29
1A
E4
00
04
DC
C8
DA
EC
DB
D8
DE
F4
05
F5
C4
DD
EA
D2
CD
DC
DC
E3
0F
E7
F0
F1
DB
A3
E8
E1
CC
E0
ED
D6
24
3B
06
D6
DC
C7
9B
EE
EE
E8
F0
DE
CA
30
51
FB
DD
D6
CE
C1
0F
EC
DA
EE
B7
D9
34
3C
D4
D1
E5
ED
EE
0E
C9
BC
D4
D7
E4
39
32
BD
CB
E9
ED
F1
E3
8B
AB
EB
F2
09
30
05
C5
03
10
F0
FF
F1
FB
F3
07
F8
07
0D
F4
F2
1A
0B
03
F8
F0
12
0F
11
F9
E0
EA
FF
2F
1D
0F
E4
00
EB
F9
1E
0C
F9
D8
D8
FF
1F
08
EC
DB
00
EC
E8
EB
E2
CB
B6
B8
CB
CE
F7
EF
E4
FE
F9
F8
F2
0C
11
1E
12
08
06
DD
D9
EA
F6
FA
01
FD
10
0F
22
29
16
1A
06
F2
D5
D4
FE
05
0B
09
00
08
06
09
06
00
FE
E6
B5
00
17
0C
FE
15
12
07
0C
FF
F7
F9
EC
A5
F5
0D
FC
EC
EE
D7
DF
F4
02
05
03
EB
CB
F2
DA
AC
AD
BB
C2
B7
C6
E5
FC
F9
E2
06
EC
DE
C9
DF
EE
E8
FB
F2
EC
F1
EC
DB
34
07
0D
06
F8
F7
21
24
0F
08
FA
FD
15
4E
EE
1E
14
0E
09
1C
1B
06
05
04
13
24
4A
F5
0D
19
0A
1E
12
08
FD
15
24
17
10
36
03
04
0A
18
07
00
EA
F1
01
28
1B
26
22
EF
E2
F1
F9
F9
00
F2
F0
0F
09
0E
0A
1A
DC
BB
A4
A3
AC
BD
E9
E9
E3
E6
D4
F5
08
F8
FC
0C
04
04
1C
29
1A
1B
08
EC
D1
E5
18
27
24
08
11
03
10
09
F9
F6
D6
CB
CC
10
1B
20
09
1E
16
10
04
01
FA
ED
D0
BF
FC
28
1C
07
FB
E9
F9
10
08
0D
01
E3
A4
19
1D
04
EA
CB
C1
01
27
12
0C
1A
DC
83
06
01
D4
CD
D5
EC
0F
11
0B
F6
DD
D0
B8
16
EA
CF
E3
F0
07
17
08
FB
02
E4
DE
E0
2C
28
FC
D7
E5
E3
F7
EE
0A
11
05
0D
EE
32
23
17
ED
CB
C5
D3
EF
11
23
17
FE
E4
2D
2E
23
15
F3
E6
DF
11
1A
15
08
F9
CD
26
1B
0E
12
09
F7
FD
0B
19
10
F9
DD
B8
33
22
22
0D
09
12
FF
01
FB
FC
E6
CC
DB
07
37
2C
38
39
2F
29
10
FE
00
EA
DF
EE
F8
DC
E1
B6
A8
8B
A5
CE
C4
DB
E6
EE
EC
00
15
05
04
F7
DF
F2
0D
06
13
16
2D
0A
F5
07
20
08
EF
F4
E5
D1
EC
FB
0D
38
19
E2
F5
E8
EC
E4
F2
C2
BE
EC
F8
FA
03
EF
D2
DC
D8
F7
01
12
CF
CC
1C
F4
E7
D6
BB
C4
D7
06
0F
27
3B
F1
E4
2F
FC
09
EB
B6
D9
F8
18
2F
2E
2C
F6
11
2F
18
13
FB
CE
D8
F9
1E
22
0C
14
1E
33
2B
1C
10
F1
D2
D6
DE
E5
F2
EE
E2
16
26
0A
E5
E7
DA
BA
DC
C3
C9
C6
CC
D4
F6
F4
E0
E9
E1
CA
C0
D2
BD
BF
CE
D9
DA
E5
F4
FC
0E
0C
F8
E5
E5
C2
E5
FB
FA
F6
EE
FC
05
06
16
0A
E2
EC
E0
DF
DB
E1
C2
BC
C0
C4
D9
E5
F3
E5
06
FC
E2
CF
C9
D6
EE
01
FD
04
F8
FA
EE
F3
CD
CA
E5
F5
F3
F4
F8
11
03
02
06
22
D6
C4
D9
F2
01
0E
F8
F3
01
17
0A
03
20
BB
B2
D8
F5
F9
0E
FC
D7
F7
01
1F
3C
67
B5
D2
F8
0E
1B
22
16
E1
D3
DD
E2
23
7F
E1
FA
08
FF
0E
3A
24
E7
CA
DB
C3
B8
20
F1
EE
FD
F8
14
26
08
D5
D6
F5
DB
C5
C0
FE
EA
EF
E5
E8
F1
D9
DD
FA
0A
0A
F8
F7
0F
0C
1E
FB
CE
D2
EB
F2
08
11
03
0F
FD
F6
FE
12
25
11
04
FC
00
13
0A
08
1B
14
0B
0A
F0
01
11
1A
10
0D
0B
08
0B
1C
00
03
0D
EC
ED
07
06
0C
0F
15
07
18
0F
FD
13
01
F4
EF
0A
21
25
1F
FE
02
00
0E
06
0D
09
29
24
36
33
23
19
21
27
2D
31
06
EF
F5
F2
04
F8
F6
FA
0B
18
29
2B
29
17
E4
D5
D6
E6
F3
DC
E5
E5
EC
F6
13
08
F2
CF
C9
D5
DF
DA
E1
ED
DA
CD
CD
DA
DA
B5
CF
CA
ED
F5
EF
FE
E8
C4
B7
C7
E9
F0
BF
C2
D4
03
0E
FD
08
F0
E1
D8
F0
26
38
FA
C1
E7
05
0F
10
09
00
09
FE
00
11
30
02
B8
D5
F7
13
1E
17
0A
F1
EA
FE
10
0A
FE
C2
B8
D9
00
2B
2D
FA
07
10
1E
03
04
EF
B8
A9
C8
E5
18
36
2A
25
26
22
0F
F7
E1
DF
96
C4
F1
F6
14
1A
12
14
11
F6
DC
D9
E3
C7
9E
B1
D5
D9
EB
E6
D3
D0
D6
E0
D7
03
F5
DC
BE
AE
9F
AB
BB
BC
CE
D2
E4
FD
FD
EF
D7
D1
B9
C3
D5
CD
DF
E0
E3
EC
FB
F1
E9
FF
F6
EB
DB
D9
DD
D5
C6
B8
B8
D2
1F
12
24
16
1E
0A
ED
EB
F7
F8
FA
DE
CF
27
1B
17
06
1E
13
23
1D
27
0E
07
F3
BD
31
25
02
FF
06
1E
23
4F
37
28
13
F3
B6
34
22
08
FF
F1
CF
D7
10
23
07
FB
E4
CE
29
2C
06
04
E7
A1
A5
F4
12
24
10
FF
EC
14
04
F8
F4
EB
BC
E5
09
1D
2E
14
0A
F7
FF
EE
E3
D3
D2
E3
03
FB
FF
00
E1
D2
DE
F0
D8
BF
C9
D4
FD
04
EF
CB
C9
CD
B2
CD
BE
E0
FD
EC
E7
DB
E7
E9
E0
C2
B9
B8
E0
F5
10
1C
14
0A
08
03
07
F5
E2
DB
D0
D5
FC
0F
27
2A
1A
16
1A
2E
21
19
05
F4
E1
E9
E9
E3
D5
C9
C1
C4
D2
C9
E2
DC
EF
FE
E8
D7
E4
FA
F3
08
17
17
07
01
FE
E2
05
D1
DF
EA
EA
F5
00
0C
0E
11
09
03
16
0F
E8
EF
FC
EF
08
05
EA
E2
F4
0B
07
0D
FB
E3
EB
0F
21
1F
08
01
D6
E9
06
1C
0B
02
D4
FD
08
09
02
0F
1B
FD
F3
10
1A
1B
FD
EB
E9
E1
DE
C9
02
1E
0E
F8
E6
F0
F2
FD
D6
BF
CC
EF
F6
1C
16
03
F5
E1
DA
D8
E9
BA
D1
E3
16
19
17
E7
E6
F5
F6
FF
00
EC
C6
D9
01
01
F0
F2
D9
DE
FB
08
04
0A
E8
CD
DF
FE
05
FC
0C
17
10
FB
03
09
FC
DC
D3
BF
CD
02
FA
06
1A
1D
0B
0F
0E
FE
D1
DD
AF
B2
B8
E8
E6
F5
03
FF
0E
05
E8
DC
EF
F3
EF
DC
D9
B5
AC
B7
BF
CF
CE
F5
F2
E1
DD
C3
CB
F6
EC
D8
C4
BD
D9
DA
C5
CF
D0
A9
BD
D0
E8
07
31
2D
1D
FE
EE
C0
B1
C1
C7
DB
E1
F3
0B
20
23
12
F0
F0
C6
AD
C6
DB
05
0D
17
0C
EE
EB
FA
0E
0D
EB
B3
D1
07
25
1C
14
04
F1
11
2A
2C
2A
F7
A1
E3
09
1A
04
FC
ED
13
13
22
20
02
EB
96
EB
03
F8
04
0C
FB
DE
FF
28
F4
E6
C8
91
D0
D6
E9
F2
F3
E4
E7
FC
09
ED
E5
D3
BB
BF
C1
E3
DC
D0
CF
F3
EF
E4
E4
E3
D8
F5
CE
D7
F0
E4
DF
DA
DD
E7
D7
E7
F7
0B
0E
D7
F0
F3
04
FD
F8
ED
EC
F4
0E
29
19
06
E0
0D
2A
22
24
1C
18
0F
2C
27
27
27
FA
